#ifndef SINENN_H
#define SINENN_H


unsigned int sineNN_len = 3188;
unsigned char sineNN[] = {
 0x1c, 0x00, 0x00, 0x00, 0x54, 0x46, 0x4c, 0x33, 0x14, 0x00, 0x20, 0x00,
  0x1c, 0x00, 0x18, 0x00, 0x14, 0x00, 0x10, 0x00, 0x0c, 0x00, 0x00, 0x00,
  0x08, 0x00, 0x04, 0x00, 0x14, 0x00, 0x00, 0x00, 0x1c, 0x00, 0x00, 0x00,
  0x90, 0x00, 0x00, 0x00, 0xe8, 0x00, 0x00, 0x00, 0x04, 0x07, 0x00, 0x00,
  0x14, 0x07, 0x00, 0x00, 0x20, 0x0c, 0x00, 0x00, 0x03, 0x00, 0x00, 0x00,
  0x01, 0x00, 0x00, 0x00, 0x10, 0x00, 0x00, 0x00, 0x00, 0x00, 0x0a, 0x00,
  0x10, 0x00, 0x0c, 0x00, 0x08, 0x00, 0x04, 0x00, 0x0a, 0x00, 0x00, 0x00,
  0x0c, 0x00, 0x00, 0x00, 0x1c, 0x00, 0x00, 0x00, 0x38, 0x00, 0x00, 0x00,
  0x0f, 0x00, 0x00, 0x00, 0x73, 0x65, 0x72, 0x76, 0x69, 0x6e, 0x67, 0x5f,
  0x64, 0x65, 0x66, 0x61, 0x75, 0x6c, 0x74, 0x00, 0x01, 0x00, 0x00, 0x00,
  0x04, 0x00, 0x00, 0x00, 0x98, 0xff, 0xff, 0xff, 0x09, 0x00, 0x00, 0x00,
  0x04, 0x00, 0x00, 0x00, 0x07, 0x00, 0x00, 0x00, 0x64, 0x65, 0x6e, 0x73,
  0x65, 0x5f, 0x32, 0x00, 0x01, 0x00, 0x00, 0x00, 0x04, 0x00, 0x00, 0x00,
  0xc6, 0xf9, 0xff, 0xff, 0x04, 0x00, 0x00, 0x00, 0x0b, 0x00, 0x00, 0x00,
  0x64, 0x65, 0x6e, 0x73, 0x65, 0x5f, 0x69, 0x6e, 0x70, 0x75, 0x74, 0x00,
  0x02, 0x00, 0x00, 0x00, 0x34, 0x00, 0x00, 0x00, 0x04, 0x00, 0x00, 0x00,
  0xdc, 0xff, 0xff, 0xff, 0x0c, 0x00, 0x00, 0x00, 0x04, 0x00, 0x00, 0x00,
  0x13, 0x00, 0x00, 0x00, 0x43, 0x4f, 0x4e, 0x56, 0x45, 0x52, 0x53, 0x49,
  0x4f, 0x4e, 0x5f, 0x4d, 0x45, 0x54, 0x41, 0x44, 0x41, 0x54, 0x41, 0x00,
  0x08, 0x00, 0x0c, 0x00, 0x08, 0x00, 0x04, 0x00, 0x08, 0x00, 0x00, 0x00,
  0x0b, 0x00, 0x00, 0x00, 0x04, 0x00, 0x00, 0x00, 0x13, 0x00, 0x00, 0x00,
  0x6d, 0x69, 0x6e, 0x5f, 0x72, 0x75, 0x6e, 0x74, 0x69, 0x6d, 0x65, 0x5f,
  0x76, 0x65, 0x72, 0x73, 0x69, 0x6f, 0x6e, 0x00, 0x0d, 0x00, 0x00, 0x00,
  0x18, 0x06, 0x00, 0x00, 0x10, 0x06, 0x00, 0x00, 0xc0, 0x05, 0x00, 0x00,
  0xa4, 0x05, 0x00, 0x00, 0x54, 0x05, 0x00, 0x00, 0x04, 0x05, 0x00, 0x00,
  0xf4, 0x00, 0x00, 0x00, 0xa4, 0x00, 0x00, 0x00, 0x9c, 0x00, 0x00, 0x00,
  0x94, 0x00, 0x00, 0x00, 0x8c, 0x00, 0x00, 0x00, 0x6c, 0x00, 0x00, 0x00,
  0x04, 0x00, 0x00, 0x00, 0x72, 0xfa, 0xff, 0xff, 0x04, 0x00, 0x00, 0x00,
  0x58, 0x00, 0x00, 0x00, 0x0c, 0x00, 0x00, 0x00, 0x08, 0x00, 0x0e, 0x00,
  0x08, 0x00, 0x04, 0x00, 0x08, 0x00, 0x00, 0x00, 0x10, 0x00, 0x00, 0x00,
  0x28, 0x00, 0x00, 0x00, 0x00, 0x00, 0x06, 0x00, 0x08, 0x00, 0x04, 0x00,
  0x06, 0x00, 0x00, 0x00, 0x04, 0x00, 0x00, 0x00, 0x01, 0x00, 0x00, 0x00,
  0xea, 0x03, 0x00, 0x00, 0x00, 0x00, 0x0a, 0x00, 0x10, 0x00, 0x0c, 0x00,
  0x08, 0x00, 0x04, 0x00, 0x0a, 0x00, 0x00, 0x00, 0x02, 0x00, 0x00, 0x00,
  0x02, 0x00, 0x00, 0x00, 0x04, 0x00, 0x00, 0x00, 0x06, 0x00, 0x00, 0x00,
  0x32, 0x2e, 0x31, 0x34, 0x2e, 0x30, 0x00, 0x00, 0xd6, 0xfa, 0xff, 0xff,
  0x04, 0x00, 0x00, 0x00, 0x10, 0x00, 0x00, 0x00, 0x31, 0x2e, 0x35, 0x2e,
  0x30, 0x00, 0x00, 0x00, 0x00, 0x00, 0x00, 0x00, 0x00, 0x00, 0x00, 0x00,
  0xac, 0xf5, 0xff, 0xff, 0xb0, 0xf5, 0xff, 0xff, 0xb4, 0xf5, 0xff, 0xff,
  0xfe, 0xfa, 0xff, 0xff, 0x04, 0x00, 0x00, 0x00, 0x40, 0x00, 0x00, 0x00,
  0x5b, 0xe4, 0x2e, 0xbe, 0x0e, 0x73, 0x93, 0x3f, 0xcd, 0xb0, 0xb0, 0x3e,
  0xce, 0x74, 0xf3, 0xbe, 0x0d, 0x12, 0xcb, 0xbd, 0x57, 0x88, 0x00, 0x40,
  0xca, 0x58, 0x5c, 0x3f, 0xa5, 0xe3, 0xdb, 0xbd, 0xbe, 0x28, 0x42, 0xbf,
  0x05, 0xf1, 0x98, 0x3e, 0x86, 0x69, 0x05, 0x3f, 0xe8, 0xa1, 0xd2, 0x3e,
  0xc4, 0x52, 0xec, 0xbe, 0xf5, 0x55, 0xec, 0x3e, 0xd2, 0x00, 0xce, 0x3e,
  0x64, 0x26, 0xfc, 0xbe, 0x4a, 0xfb, 0xff, 0xff, 0x04, 0x00, 0x00, 0x00,
  0x00, 0x04, 0x00, 0x00, 0xf8, 0xe1, 0x87, 0xbe, 0x7e, 0x4f, 0x86, 0x3e,
  0x94, 0x85, 0xdd, 0xbd, 0x52, 0xed, 0x12, 0x3e, 0xd5, 0x4e, 0x8f, 0x3d,
  0xaf, 0x9b, 0xd7, 0x3e, 0x52, 0x46, 0xd7, 0xbc, 0x76, 0x93, 0x1e, 0x3e,
  0xd0, 0xe4, 0xd5, 0x3c, 0x30, 0xe6, 0x80, 0x3c, 0x43, 0x60, 0x88, 0xbe,
  0x32, 0x4f, 0xdb, 0xbe, 0x34, 0xc8, 0xf0, 0xbd, 0x64, 0x7d, 0x55, 0xbe,
  0x9f, 0xe5, 0xa9, 0xbe, 0xd2, 0x97, 0xa0, 0x3d, 0x7c, 0x57, 0x83, 0xbd,
  0x8c, 0x36, 0x83, 0xbe, 0xab, 0xb2, 0xda, 0xbe, 0xbf, 0xb9, 0x80, 0xbf,
  0xd2, 0x03, 0x19, 0xbf, 0x89, 0x17, 0x62, 0xbe, 0xfb, 0x39, 0xe1, 0x3e,
  0xe2, 0xf8, 0xa5, 0xbe, 0x8a, 0x91, 0x27, 0xbe, 0xc2, 0x23, 0x15, 0xbe,
  0x22, 0xf4, 0xf5, 0xbe, 0xf4, 0x79, 0xd6, 0xbd, 0xe1, 0x09, 0x91, 0x3e,
  0x18, 0x80, 0x6b, 0xbe, 0xa4, 0x91, 0xf2, 0xbd, 0x26, 0x55, 0x91, 0x3e,
  0x46, 0x42, 0x68, 0xbe, 0x34, 0xb8, 0x23, 0x3e, 0xc6, 0xf2, 0xdb, 0x3d,
  0xcd, 0xfa, 0x17, 0xbe, 0xdc, 0x96, 0x1b, 0x3e, 0x84, 0xf2, 0x9c, 0xbe,
  0x33, 0x73, 0xab, 0xbe, 0x70, 0x01, 0x36, 0xbe, 0x48, 0x6f, 0xc7, 0xbd,
  0xe5, 0xde, 0x71, 0xbe, 0x0b, 0x53, 0x01, 0xbd, 0x57, 0x95, 0xd2, 0x3e,
  0xd1, 0xd8, 0xc1, 0x3d, 0xc4, 0x21, 0x12, 0xbe, 0x6f, 0x0d, 0xab, 0x3e,
  0x4c, 0x7d, 0xa2, 0x3e, 0xe6, 0xfc, 0x4e, 0xbe, 0xc5, 0x45, 0x6a, 0x3e,
  0x53, 0xb7, 0x0e, 0x3e, 0x0a, 0x7e, 0x8a, 0x3c, 0x83, 0x95, 0xbc, 0x3e,
  0x1b, 0xb6, 0xca, 0x3e, 0x49, 0xad, 0xb8, 0x3d, 0x2c, 0x8a, 0x94, 0xbe,
  0xbe, 0x18, 0x60, 0xbe, 0xbc, 0xee, 0xcf, 0xbd, 0x9a, 0x69, 0x8b, 0x3e,
  0xa1, 0x5a, 0x8b, 0x3e, 0x0b, 0x56, 0x4a, 0x3e, 0x73, 0x0c, 0x9a, 0xbe,
  0xff, 0x20, 0xb4, 0x3e, 0x1f, 0xfd, 0x77, 0x3e, 0x60, 0xd2, 0xe9, 0xbd,
  0x36, 0xe5, 0xcd, 0xbd, 0x64, 0x66, 0xc4, 0x3e, 0xb5, 0xb8, 0x78, 0x3e,
  0x20, 0x9a, 0x68, 0x3e, 0x27, 0x55, 0x4f, 0xbe, 0xe4, 0x3c, 0x77, 0xbb,
  0xfd, 0xa8, 0xc6, 0xbe, 0x30, 0xf3, 0x52, 0xbd, 0x85, 0xb3, 0x80, 0x3e,
  0x01, 0xbf, 0x0f, 0xbb, 0xac, 0x07, 0xe4, 0x3d, 0xaf, 0x6b, 0xeb, 0xbd,
  0xf4, 0x38, 0xf4, 0xbd, 0x71, 0xa4, 0x8f, 0x3e, 0x6e, 0xc4, 0x03, 0x3f,
  0x28, 0x78, 0x20, 0xbe, 0x64, 0x3a, 0x1e, 0x3d, 0x78, 0x1d, 0x7a, 0x3e,
  0xc6, 0xa3, 0x85, 0x3e, 0x3a, 0xcb, 0xfc, 0x3e, 0xcc, 0x75, 0x1a, 0xbe,
  0xeb, 0xef, 0xa9, 0x3d, 0xfa, 0xe7, 0x07, 0xbe, 0x6c, 0x37, 0xc7, 0xbe,
  0xe4, 0x2a, 0xa3, 0xbd, 0x78, 0xa9, 0x93, 0x3e, 0xe4, 0x0d, 0xc4, 0xbe,
  0x37, 0xdd, 0xa0, 0xbe, 0xf9, 0x91, 0x0c, 0xbf, 0x7a, 0x69, 0x39, 0x3e,
  0x7e, 0xc1, 0x8d, 0x3e, 0x72, 0x36, 0x0a, 0x3e, 0x13, 0x65, 0x8a, 0x3c,
  0xb0, 0xd0, 0x1a, 0xbf, 0x70, 0xf9, 0x75, 0xbf, 0xec, 0x59, 0x5f, 0xbe,
  0x32, 0x24, 0x89, 0xbe, 0x48, 0xf5, 0x56, 0x3e, 0xc1, 0x9b, 0x90, 0x3e,
  0xa1, 0x28, 0xa0, 0x3e, 0xf8, 0xb5, 0xd1, 0xbe, 0xc0, 0xf8, 0x30, 0xbe,
  0x69, 0xc3, 0xd2, 0x3e, 0x4e, 0xa3, 0x85, 0x3d, 0xd1, 0xc8, 0x58, 0xbe,
  0x90, 0x3d, 0x90, 0xbc, 0x51, 0xe5, 0x91, 0x3e, 0x5c, 0xab, 0xad, 0x3d,
  0x69, 0xde, 0x87, 0x3e, 0x9b, 0xcf, 0x31, 0x3e, 0xc9, 0x48, 0x82, 0xbd,
  0x3c, 0x3a, 0x63, 0xbe, 0xc1, 0xe0, 0x9d, 0xbe, 0x46, 0x71, 0x12, 0xbe,
  0xa8, 0xf5, 0xb6, 0xbe, 0xc8, 0xb5, 0x10, 0xbe, 0x65, 0xbe, 0x9f, 0x3e,
  0x1c, 0xd8, 0xc4, 0x3e, 0xb0, 0xb1, 0x41, 0x3d, 0xad, 0xf1, 0xb3, 0x3e,
  0xfe, 0x25, 0x06, 0x3e, 0xca, 0x83, 0x2b, 0x3e, 0xea, 0x78, 0xda, 0x3e,
  0x4e, 0x18, 0x85, 0xbe, 0x00, 0xfd, 0x9d, 0xbe, 0xf5, 0xb9, 0xed, 0xbe,
  0x5f, 0xe4, 0xf5, 0xbe, 0x5d, 0x18, 0xc3, 0xbe, 0x62, 0x0d, 0x72, 0x3e,
  0x01, 0x91, 0x0d, 0x3e, 0x50, 0x6a, 0xd7, 0x3c, 0x75, 0x69, 0xa7, 0xbe,
  0x60, 0x3d, 0x21, 0xbc, 0x51, 0xfc, 0x98, 0x3c, 0x13, 0xae, 0x99, 0x3e,
  0xa3, 0xe5, 0xab, 0x3d, 0xfa, 0x5b, 0x9a, 0x3e, 0x12, 0xff, 0xa0, 0xbe,
  0xcf, 0x09, 0xe3, 0xbe, 0xa4, 0x52, 0xec, 0x3d, 0x84, 0xdb, 0xb5, 0xbe,
  0xd3, 0x66, 0x0c, 0xbe, 0xc7, 0x81, 0x07, 0x3f, 0x91, 0xd3, 0xf2, 0xbd,
  0xa5, 0x55, 0xa1, 0x3e, 0x0f, 0x0d, 0x95, 0x3e, 0x46, 0x12, 0x4d, 0x3e,
  0xb0, 0xdb, 0xf0, 0xbc, 0x3a, 0x9e, 0x45, 0xbe, 0x5c, 0xef, 0xc6, 0x3e,
  0xe2, 0x77, 0x10, 0xbe, 0x3e, 0x85, 0x18, 0xbc, 0x58, 0x75, 0x52, 0x3e,
  0xbd, 0xbb, 0x91, 0x3e, 0x8b, 0x44, 0x80, 0x3e, 0x66, 0xd5, 0x05, 0xbe,
  0x45, 0xf8, 0x44, 0x3e, 0xe4, 0xc3, 0x46, 0xbc, 0x0e, 0x0c, 0x25, 0xbe,
  0xa7, 0xd6, 0xcf, 0xbe, 0xf2, 0x99, 0x35, 0xbe, 0x1f, 0x23, 0x09, 0xbe,
  0xf5, 0xa0, 0x66, 0xbe, 0xa0, 0x40, 0x38, 0xbd, 0xf2, 0xf6, 0x0a, 0x3e,
  0x17, 0x08, 0xde, 0xbe, 0xf3, 0xcd, 0x8e, 0x3e, 0x22, 0x34, 0x3c, 0x3e,
  0x2f, 0xab, 0x4d, 0xbe, 0xf1, 0x47, 0xad, 0x3e, 0x0c, 0xcd, 0xef, 0xbd,
  0x5f, 0x0a, 0x3c, 0xbe, 0xe3, 0x64, 0x7b, 0x3c, 0x49, 0x49, 0x94, 0xbd,
  0x5c, 0x6f, 0x59, 0x3e, 0xfc, 0x54, 0xe1, 0xbd, 0x57, 0x55, 0xb9, 0x3e,
  0x73, 0xff, 0x2a, 0xbe, 0xe4, 0x6b, 0xbe, 0xbe, 0x58, 0xd4, 0x65, 0x3d,
  0x97, 0xd7, 0xcd, 0x3e, 0x2c, 0xa4, 0x18, 0x3d, 0xa8, 0x37, 0xf6, 0xbd,
  0x51, 0xaa, 0x42, 0x3e, 0x29, 0x70, 0x25, 0x3d, 0xbf, 0xa8, 0xbc, 0x3e,
  0x93, 0xb3, 0x38, 0x3e, 0x2a, 0xd2, 0x68, 0x3e, 0xdb, 0xa8, 0x6d, 0xbe,
  0xb3, 0xb3, 0x12, 0x3f, 0xf1, 0x63, 0x88, 0x3e, 0xc5, 0xe5, 0x74, 0xbe,
  0x92, 0xbf, 0x6c, 0xbe, 0xc6, 0x81, 0xde, 0xbd, 0x40, 0x53, 0xae, 0xbb,
  0xdc, 0x47, 0x90, 0x3d, 0x23, 0x13, 0x97, 0x3e, 0x99, 0xcc, 0xa8, 0xbe,
  0xfb, 0x13, 0xc6, 0x3e, 0x20, 0x2f, 0xb5, 0xbd, 0x7d, 0x1a, 0xd6, 0x3e,
  0x40, 0x58, 0x83, 0xbe, 0x4f, 0x66, 0x2f, 0xbf, 0x66, 0x0a, 0xd8, 0xbe,
  0x2b, 0xd2, 0x63, 0x3e, 0xa2, 0x24, 0x9e, 0x3e, 0x56, 0xc4, 0x88, 0x3d,
  0x2f, 0x4b, 0x52, 0x3e, 0x68, 0x0d, 0x70, 0xbe, 0x58, 0x33, 0x53, 0x3e,
  0xc4, 0x71, 0x8d, 0x3d, 0x12, 0x8a, 0x16, 0x3e, 0x20, 0x29, 0x43, 0x3d,
  0x97, 0xbe, 0x82, 0x3e, 0x0a, 0x69, 0x30, 0x3e, 0x1e, 0x1b, 0xab, 0xbe,
  0xb8, 0x88, 0xf6, 0xbe, 0xb0, 0xa2, 0xe7, 0x3c, 0xae, 0xec, 0xc8, 0x3b,
  0xd8, 0x0d, 0x38, 0xbd, 0x56, 0x8c, 0x4f, 0xbe, 0x1c, 0x28, 0xfe, 0x3d,
  0xb6, 0xf8, 0x33, 0xbe, 0x66, 0x68, 0x62, 0x3e, 0xeb, 0xac, 0x4f, 0xbe,
  0xfe, 0x9d, 0x0b, 0xbe, 0x3c, 0x77, 0x95, 0xbe, 0x8d, 0x92, 0xa7, 0x3e,
  0x0e, 0x60, 0x01, 0x3e, 0x42, 0x8d, 0x04, 0x3e, 0xd0, 0x0d, 0x20, 0x3d,
  0x2e, 0xcc, 0x97, 0x3e, 0x29, 0x1b, 0xad, 0xbe, 0x32, 0xdd, 0x67, 0x3e,
  0x89, 0x39, 0x1c, 0xbe, 0xbd, 0x20, 0xbc, 0x3e, 0x50, 0x90, 0x62, 0xbd,
  0x25, 0x6d, 0xc0, 0xbe, 0xe0, 0x51, 0xdf, 0x3d, 0xe7, 0x25, 0x8f, 0x3e,
  0xbf, 0x1f, 0x99, 0x3e, 0x85, 0x3c, 0x3c, 0xbe, 0x35, 0xb2, 0xaa, 0x3e,
  0xc4, 0x09, 0x81, 0xbe, 0x46, 0xdb, 0x60, 0xbe, 0x46, 0x91, 0x2a, 0x3e,
  0xa0, 0x59, 0x8a, 0xbd, 0xe8, 0xa2, 0x38, 0xbe, 0xcc, 0xb3, 0x90, 0x3d,
  0xb3, 0x16, 0x7f, 0xbe, 0x00, 0x4e, 0x02, 0x3c, 0x56, 0xff, 0xff, 0xff,
  0x04, 0x00, 0x00, 0x00, 0x40, 0x00, 0x00, 0x00, 0x9b, 0x6b, 0xb8, 0xbe,
  0x23, 0xf0, 0x13, 0x3f, 0x2e, 0x53, 0xcd, 0x3e, 0x76, 0x59, 0x3e, 0x3e,
  0x47, 0x86, 0x95, 0x3e, 0xe4, 0x1a, 0x17, 0xbe, 0x75, 0x9e, 0xd9, 0x3e,
  0x18, 0x33, 0x8d, 0xbd, 0xa3, 0xc6, 0x8c, 0xbe, 0x3e, 0xbc, 0x02, 0xbe,
  0x5e, 0x3b, 0xb6, 0x3e, 0x20, 0x53, 0x2c, 0xbe, 0xa3, 0xb6, 0xef, 0x3e,
  0x92, 0x4a, 0x16, 0x3e, 0x16, 0xf5, 0x56, 0xbe, 0x63, 0x67, 0xf4, 0x3e,
  0xa2, 0xff, 0xff, 0xff, 0x04, 0x00, 0x00, 0x00, 0x40, 0x00, 0x00, 0x00,
  0x00, 0x00, 0x00, 0x00, 0x50, 0xef, 0xb2, 0xbe, 0x14, 0x52, 0xe9, 0xbe,
  0x8f, 0x70, 0xf5, 0xbe, 0x43, 0x25, 0xf7, 0xbe, 0x00, 0x00, 0x00, 0x00,
  0x6a, 0xf1, 0x83, 0x3e, 0x00, 0x00, 0x00, 0x00, 0x00, 0x00, 0x00, 0x00,
  0x00, 0x00, 0x00, 0x00, 0x49, 0x7c, 0x12, 0xbf, 0x00, 0x00, 0x00, 0x00,
  0x31, 0x0a, 0x17, 0x3f, 0x5c, 0x7f, 0xd5, 0x3e, 0x00, 0x00, 0x00, 0x00,
  0xe0, 0xa4, 0x5e, 0xbd, 0xee, 0xff, 0xff, 0xff, 0x04, 0x00, 0x00, 0x00,
  0x04, 0x00, 0x00, 0x00, 0x48, 0xa2, 0x1d, 0xbe, 0x00, 0x00, 0x06, 0x00,
  0x08, 0x00, 0x04, 0x00, 0x06, 0x00, 0x00, 0x00, 0x04, 0x00, 0x00, 0x00,
  0x40, 0x00, 0x00, 0x00, 0x10, 0x53, 0x44, 0xbc, 0x16, 0xe4, 0xb4, 0x3e,
  0x6d, 0x39, 0x14, 0xbe, 0x82, 0x2a, 0x9b, 0xbd, 0x82, 0x57, 0x6b, 0x3c,
  0xd8, 0x58, 0x33, 0xbf, 0xbb, 0x4a, 0x82, 0x3e, 0x5f, 0xa6, 0xb9, 0xbd,
  0xfc, 0x10, 0xb9, 0x3e, 0x8b, 0xa9, 0x24, 0xbe, 0x2f, 0xda, 0xb8, 0xbc,
  0x06, 0xc4, 0xe0, 0xbd, 0xa9, 0x43, 0x5a, 0x3e, 0xfc, 0x51, 0x5a, 0xbe,
  0xdd, 0xd7, 0x16, 0xbc, 0x1c, 0x97, 0x0b, 0xbc, 0x0c, 0xfb, 0xff, 0xff,
  0x10, 0xfb, 0xff, 0xff, 0x0f, 0x00, 0x00, 0x00, 0x4d, 0x4c, 0x49, 0x52,
  0x20, 0x43, 0x6f, 0x6e, 0x76, 0x65, 0x72, 0x74, 0x65, 0x64, 0x2e, 0x00,
  0x01, 0x00, 0x00, 0x00, 0x14, 0x00, 0x00, 0x00, 0x00, 0x00, 0x0e, 0x00,
  0x18, 0x00, 0x14, 0x00, 0x10, 0x00, 0x0c, 0x00, 0x08, 0x00, 0x04, 0x00,
  0x0e, 0x00, 0x00, 0x00, 0x14, 0x00, 0x00, 0x00, 0x1c, 0x00, 0x00, 0x00,
  0xd8, 0x00, 0x00, 0x00, 0xdc, 0x00, 0x00, 0x00, 0xe0, 0x00, 0x00, 0x00,
  0x04, 0x00, 0x00, 0x00, 0x6d, 0x61, 0x69, 0x6e, 0x00, 0x00, 0x00, 0x00,
  0x03, 0x00, 0x00, 0x00, 0x80, 0x00, 0x00, 0x00, 0x38, 0x00, 0x00, 0x00,
  0x04, 0x00, 0x00, 0x00, 0x9a, 0xff, 0xff, 0xff, 0x10, 0x00, 0x00, 0x00,
  0x00, 0x00, 0x00, 0x08, 0x0c, 0x00, 0x00, 0x00, 0x10, 0x00, 0x00, 0x00,
  0x88, 0xfb, 0xff, 0xff, 0x01, 0x00, 0x00, 0x00, 0x09, 0x00, 0x00, 0x00,
  0x03, 0x00, 0x00, 0x00, 0x08, 0x00, 0x00, 0x00, 0x06, 0x00, 0x00, 0x00,
  0x02, 0x00, 0x00, 0x00, 0xca, 0xff, 0xff, 0xff, 0x10, 0x00, 0x00, 0x00,
  0x00, 0x00, 0x00, 0x08, 0x10, 0x00, 0x00, 0x00, 0x14, 0x00, 0x00, 0x00,
  0xba, 0xff, 0xff, 0xff, 0x00, 0x00, 0x00, 0x01, 0x01, 0x00, 0x00, 0x00,
  0x08, 0x00, 0x00, 0x00, 0x03, 0x00, 0x00, 0x00, 0x07, 0x00, 0x00, 0x00,
  0x05, 0x00, 0x00, 0x00, 0x01, 0x00, 0x00, 0x00, 0x00, 0x00, 0x0e, 0x00,
  0x16, 0x00, 0x00, 0x00, 0x10, 0x00, 0x0c, 0x00, 0x0b, 0x00, 0x04, 0x00,
  0x0e, 0x00, 0x00, 0x00, 0x18, 0x00, 0x00, 0x00, 0x00, 0x00, 0x00, 0x08,
  0x18, 0x00, 0x00, 0x00, 0x1c, 0x00, 0x00, 0x00, 0x00, 0x00, 0x06, 0x00,
  0x08, 0x00, 0x07, 0x00, 0x06, 0x00, 0x00, 0x00, 0x00, 0x00, 0x00, 0x01,
  0x01, 0x00, 0x00, 0x00, 0x07, 0x00, 0x00, 0x00, 0x03, 0x00, 0x00, 0x00,
  0x00, 0x00, 0x00, 0x00, 0x04, 0x00, 0x00, 0x00, 0x03, 0x00, 0x00, 0x00,
  0x01, 0x00, 0x00, 0x00, 0x09, 0x00, 0x00, 0x00, 0x01, 0x00, 0x00, 0x00,
  0x00, 0x00, 0x00, 0x00, 0x0a, 0x00, 0x00, 0x00, 0xa0, 0x03, 0x00, 0x00,
  0x30, 0x03, 0x00, 0x00, 0xc0, 0x02, 0x00, 0x00, 0x68, 0x02, 0x00, 0x00,
  0x1c, 0x02, 0x00, 0x00, 0xd0, 0x01, 0x00, 0x00, 0x84, 0x01, 0x00, 0x00,
  0xf4, 0x00, 0x00, 0x00, 0x60, 0x00, 0x00, 0x00, 0x04, 0x00, 0x00, 0x00,
  0x9e, 0xfc, 0xff, 0xff, 0x00, 0x00, 0x00, 0x01, 0x14, 0x00, 0x00, 0x00,
  0x1c, 0x00, 0x00, 0x00, 0x1c, 0x00, 0x00, 0x00, 0x0a, 0x00, 0x00, 0x00,
  0x34, 0x00, 0x00, 0x00, 0x02, 0x00, 0x00, 0x00, 0xff, 0xff, 0xff, 0xff,
  0x01, 0x00, 0x00, 0x00, 0x88, 0xfc, 0xff, 0xff, 0x19, 0x00, 0x00, 0x00,
  0x53, 0x74, 0x61, 0x74, 0x65, 0x66, 0x75, 0x6c, 0x50, 0x61, 0x72, 0x74,
  0x69, 0x74, 0x69, 0x6f, 0x6e, 0x65, 0x64, 0x43, 0x61, 0x6c, 0x6c, 0x3a,
  0x30, 0x00, 0x00, 0x00, 0x02, 0x00, 0x00, 0x00, 0x01, 0x00, 0x00, 0x00,
  0x01, 0x00, 0x00, 0x00, 0xf6, 0xfc, 0xff, 0xff, 0x00, 0x00, 0x00, 0x01,
  0x14, 0x00, 0x00, 0x00, 0x1c, 0x00, 0x00, 0x00, 0x1c, 0x00, 0x00, 0x00,
  0x09, 0x00, 0x00, 0x00, 0x6c, 0x00, 0x00, 0x00, 0x02, 0x00, 0x00, 0x00,
  0xff, 0xff, 0xff, 0xff, 0x10, 0x00, 0x00, 0x00, 0xe0, 0xfc, 0xff, 0xff,
  0x52, 0x00, 0x00, 0x00, 0x73, 0x65, 0x71, 0x75, 0x65, 0x6e, 0x74, 0x69,
  0x61, 0x6c, 0x5f, 0x31, 0x2f, 0x64, 0x65, 0x6e, 0x73, 0x65, 0x5f, 0x31,
  0x2f, 0x4d, 0x61, 0x74, 0x4d, 0x75, 0x6c, 0x3b, 0x73, 0x65, 0x71, 0x75,
  0x65, 0x6e, 0x74, 0x69, 0x61, 0x6c, 0x5f, 0x31, 0x2f, 0x64, 0x65, 0x6e,
  0x73, 0x65, 0x5f, 0x31, 0x2f, 0x52, 0x65, 0x6c, 0x75, 0x3b, 0x73, 0x65,
  0x71, 0x75, 0x65, 0x6e, 0x74, 0x69, 0x61, 0x6c, 0x5f, 0x31, 0x2f, 0x64,
  0x65, 0x6e, 0x73, 0x65, 0x5f, 0x31, 0x2f, 0x42, 0x69, 0x61, 0x73, 0x41,
  0x64, 0x64, 0x00, 0x00, 0x02, 0x00, 0x00, 0x00, 0x01, 0x00, 0x00, 0x00,
  0x10, 0x00, 0x00, 0x00, 0x86, 0xfd, 0xff, 0xff, 0x00, 0x00, 0x00, 0x01,
  0x14, 0x00, 0x00, 0x00, 0x1c, 0x00, 0x00, 0x00, 0x1c, 0x00, 0x00, 0x00,
  0x08, 0x00, 0x00, 0x00, 0x68, 0x00, 0x00, 0x00, 0x02, 0x00, 0x00, 0x00,
  0xff, 0xff, 0xff, 0xff, 0x10, 0x00, 0x00, 0x00, 0x70, 0xfd, 0xff, 0xff,
  0x4c, 0x00, 0x00, 0x00, 0x73, 0x65, 0x71, 0x75, 0x65, 0x6e, 0x74, 0x69,
  0x61, 0x6c, 0x5f, 0x31, 0x2f, 0x64, 0x65, 0x6e, 0x73, 0x65, 0x2f, 0x4d,
  0x61, 0x74, 0x4d, 0x75, 0x6c, 0x3b, 0x73, 0x65, 0x71, 0x75, 0x65, 0x6e,
  0x74, 0x69, 0x61, 0x6c, 0x5f, 0x31, 0x2f, 0x64, 0x65, 0x6e, 0x73, 0x65,
  0x2f, 0x52, 0x65, 0x6c, 0x75, 0x3b, 0x73, 0x65, 0x71, 0x75, 0x65, 0x6e,
  0x74, 0x69, 0x61, 0x6c, 0x5f, 0x31, 0x2f, 0x64, 0x65, 0x6e, 0x73, 0x65,
  0x2f, 0x42, 0x69, 0x61, 0x73, 0x41, 0x64, 0x64, 0x00, 0x00, 0x00, 0x00,
  0x02, 0x00, 0x00, 0x00, 0x01, 0x00, 0x00, 0x00, 0x10, 0x00, 0x00, 0x00,
  0x7e, 0xfe, 0xff, 0xff, 0x00, 0x00, 0x00, 0x01, 0x10, 0x00, 0x00, 0x00,
  0x10, 0x00, 0x00, 0x00, 0x07, 0x00, 0x00, 0x00, 0x28, 0x00, 0x00, 0x00,
  0xec, 0xfd, 0xff, 0xff, 0x1b, 0x00, 0x00, 0x00, 0x73, 0x65, 0x71, 0x75,
  0x65, 0x6e, 0x74, 0x69, 0x61, 0x6c, 0x5f, 0x31, 0x2f, 0x64, 0x65, 0x6e,
  0x73, 0x65, 0x5f, 0x32, 0x2f, 0x4d, 0x61, 0x74, 0x4d, 0x75, 0x6c, 0x00,
  0x02, 0x00, 0x00, 0x00, 0x01, 0x00, 0x00, 0x00, 0x10, 0x00, 0x00, 0x00,
  0xc6, 0xfe, 0xff, 0xff, 0x00, 0x00, 0x00, 0x01, 0x10, 0x00, 0x00, 0x00,
  0x10, 0x00, 0x00, 0x00, 0x06, 0x00, 0x00, 0x00, 0x28, 0x00, 0x00, 0x00,
  0x34, 0xfe, 0xff, 0xff, 0x1b, 0x00, 0x00, 0x00, 0x73, 0x65, 0x71, 0x75,
  0x65, 0x6e, 0x74, 0x69, 0x61, 0x6c, 0x5f, 0x31, 0x2f, 0x64, 0x65, 0x6e,
  0x73, 0x65, 0x5f, 0x31, 0x2f, 0x4d, 0x61, 0x74, 0x4d, 0x75, 0x6c, 0x00,
  0x02, 0x00, 0x00, 0x00, 0x10, 0x00, 0x00, 0x00, 0x10, 0x00, 0x00, 0x00,
  0x0e, 0xff, 0xff, 0xff, 0x00, 0x00, 0x00, 0x01, 0x10, 0x00, 0x00, 0x00,
  0x10, 0x00, 0x00, 0x00, 0x05, 0x00, 0x00, 0x00, 0x28, 0x00, 0x00, 0x00,
  0x7c, 0xfe, 0xff, 0xff, 0x19, 0x00, 0x00, 0x00, 0x73, 0x65, 0x71, 0x75,
  0x65, 0x6e, 0x74, 0x69, 0x61, 0x6c, 0x5f, 0x31, 0x2f, 0x64, 0x65, 0x6e,
  0x73, 0x65, 0x2f, 0x4d, 0x61, 0x74, 0x4d, 0x75, 0x6c, 0x00, 0x00, 0x00,
  0x02, 0x00, 0x00, 0x00, 0x10, 0x00, 0x00, 0x00, 0x01, 0x00, 0x00, 0x00,
  0x56, 0xff, 0xff, 0xff, 0x00, 0x00, 0x00, 0x01, 0x10, 0x00, 0x00, 0x00,
  0x10, 0x00, 0x00, 0x00, 0x04, 0x00, 0x00, 0x00, 0x38, 0x00, 0x00, 0x00,
  0xc4, 0xfe, 0xff, 0xff, 0x29, 0x00, 0x00, 0x00, 0x73, 0x65, 0x71, 0x75,
  0x65, 0x6e, 0x74, 0x69, 0x61, 0x6c, 0x5f, 0x31, 0x2f, 0x64, 0x65, 0x6e,
  0x73, 0x65, 0x2f, 0x42, 0x69, 0x61, 0x73, 0x41, 0x64, 0x64, 0x2f, 0x52,
  0x65, 0x61, 0x64, 0x56, 0x61, 0x72, 0x69, 0x61, 0x62, 0x6c, 0x65, 0x4f,
  0x70, 0x00, 0x00, 0x00, 0x01, 0x00, 0x00, 0x00, 0x10, 0x00, 0x00, 0x00,
  0xaa, 0xff, 0xff, 0xff, 0x00, 0x00, 0x00, 0x01, 0x10, 0x00, 0x00, 0x00,
  0x10, 0x00, 0x00, 0x00, 0x03, 0x00, 0x00, 0x00, 0x38, 0x00, 0x00, 0x00,
  0x18, 0xff, 0xff, 0xff, 0x2b, 0x00, 0x00, 0x00, 0x73, 0x65, 0x71, 0x75,
  0x65, 0x6e, 0x74, 0x69, 0x61, 0x6c, 0x5f, 0x31, 0x2f, 0x64, 0x65, 0x6e,
  0x73, 0x65, 0x5f, 0x32, 0x2f, 0x42, 0x69, 0x61, 0x73, 0x41, 0x64, 0x64,
  0x2f, 0x52, 0x65, 0x61, 0x64, 0x56, 0x61, 0x72, 0x69, 0x61, 0x62, 0x6c,
  0x65, 0x4f, 0x70, 0x00, 0x01, 0x00, 0x00, 0x00, 0x01, 0x00, 0x00, 0x00,
  0x00, 0x00, 0x16, 0x00, 0x18, 0x00, 0x14, 0x00, 0x00, 0x00, 0x10, 0x00,
  0x0c, 0x00, 0x08, 0x00, 0x00, 0x00, 0x00, 0x00, 0x00, 0x00, 0x07, 0x00,
  0x16, 0x00, 0x00, 0x00, 0x00, 0x00, 0x00, 0x01, 0x10, 0x00, 0x00, 0x00,
  0x10, 0x00, 0x00, 0x00, 0x02, 0x00, 0x00, 0x00, 0x38, 0x00, 0x00, 0x00,
  0x84, 0xff, 0xff, 0xff, 0x2b, 0x00, 0x00, 0x00, 0x73, 0x65, 0x71, 0x75,
  0x65, 0x6e, 0x74, 0x69, 0x61, 0x6c, 0x5f, 0x31, 0x2f, 0x64, 0x65, 0x6e,
  0x73, 0x65, 0x5f, 0x31, 0x2f, 0x42, 0x69, 0x61, 0x73, 0x41, 0x64, 0x64,
  0x2f, 0x52, 0x65, 0x61, 0x64, 0x56, 0x61, 0x72, 0x69, 0x61, 0x62, 0x6c,
  0x65, 0x4f, 0x70, 0x00, 0x01, 0x00, 0x00, 0x00, 0x10, 0x00, 0x00, 0x00,
  0x00, 0x00, 0x16, 0x00, 0x1c, 0x00, 0x18, 0x00, 0x00, 0x00, 0x14, 0x00,
  0x10, 0x00, 0x0c, 0x00, 0x00, 0x00, 0x00, 0x00, 0x08, 0x00, 0x07, 0x00,
  0x16, 0x00, 0x00, 0x00, 0x00, 0x00, 0x00, 0x01, 0x14, 0x00, 0x00, 0x00,
  0x20, 0x00, 0x00, 0x00, 0x20, 0x00, 0x00, 0x00, 0x01, 0x00, 0x00, 0x00,
  0x3c, 0x00, 0x00, 0x00, 0x02, 0x00, 0x00, 0x00, 0xff, 0xff, 0xff, 0xff,
  0x01, 0x00, 0x00, 0x00, 0x04, 0x00, 0x04, 0x00, 0x04, 0x00, 0x00, 0x00,
  0x1d, 0x00, 0x00, 0x00, 0x73, 0x65, 0x72, 0x76, 0x69, 0x6e, 0x67, 0x5f,
  0x64, 0x65, 0x66, 0x61, 0x75, 0x6c, 0x74, 0x5f, 0x64, 0x65, 0x6e, 0x73,
  0x65, 0x5f, 0x69, 0x6e, 0x70, 0x75, 0x74, 0x3a, 0x30, 0x00, 0x00, 0x00,
  0x02, 0x00, 0x00, 0x00, 0x01, 0x00, 0x00, 0x00, 0x01, 0x00, 0x00, 0x00,
  0x01, 0x00, 0x00, 0x00, 0x10, 0x00, 0x00, 0x00, 0x0c, 0x00, 0x0c, 0x00,
  0x0b, 0x00, 0x00, 0x00, 0x00, 0x00, 0x04, 0x00, 0x0c, 0x00, 0x00, 0x00,
  0x09, 0x00, 0x00, 0x00, 0x00, 0x00, 0x00, 0x09
};

#endif //SINENN_H