#ifndef SINENN_H
#define SINENN_H


unsigned int sineNN_len = 3236;
unsigned char sineNN[] = {
 0x1c, 0x00, 0x00, 0x00, 0x54, 0x46, 0x4c, 0x33, 0x14, 0x00, 0x20, 0x00,
  0x1c, 0x00, 0x18, 0x00, 0x14, 0x00, 0x10, 0x00, 0x0c, 0x00, 0x00, 0x00,
  0x08, 0x00, 0x04, 0x00, 0x14, 0x00, 0x00, 0x00, 0x1c, 0x00, 0x00, 0x00,
  0x98, 0x00, 0x00, 0x00, 0xf0, 0x00, 0x00, 0x00, 0x0c, 0x07, 0x00, 0x00,
  0x1c, 0x07, 0x00, 0x00, 0x50, 0x0c, 0x00, 0x00, 0x03, 0x00, 0x00, 0x00,
  0x01, 0x00, 0x00, 0x00, 0x10, 0x00, 0x00, 0x00, 0x00, 0x00, 0x0a, 0x00,
  0x10, 0x00, 0x0c, 0x00, 0x08, 0x00, 0x04, 0x00, 0x0a, 0x00, 0x00, 0x00,
  0x0c, 0x00, 0x00, 0x00, 0x1c, 0x00, 0x00, 0x00, 0x3c, 0x00, 0x00, 0x00,
  0x0f, 0x00, 0x00, 0x00, 0x73, 0x65, 0x72, 0x76, 0x69, 0x6e, 0x67, 0x5f,
  0x64, 0x65, 0x66, 0x61, 0x75, 0x6c, 0x74, 0x00, 0x01, 0x00, 0x00, 0x00,
  0x04, 0x00, 0x00, 0x00, 0x90, 0xff, 0xff, 0xff, 0x09, 0x00, 0x00, 0x00,
  0x04, 0x00, 0x00, 0x00, 0x08, 0x00, 0x00, 0x00, 0x64, 0x65, 0x6e, 0x73,
  0x65, 0x5f, 0x32, 0x33, 0x00, 0x00, 0x00, 0x00, 0x01, 0x00, 0x00, 0x00,
  0x04, 0x00, 0x00, 0x00, 0x86, 0xf9, 0xff, 0xff, 0x04, 0x00, 0x00, 0x00,
  0x0e, 0x00, 0x00, 0x00, 0x64, 0x65, 0x6e, 0x73, 0x65, 0x5f, 0x32, 0x31,
  0x5f, 0x69, 0x6e, 0x70, 0x75, 0x74, 0x00, 0x00, 0x02, 0x00, 0x00, 0x00,
  0x34, 0x00, 0x00, 0x00, 0x04, 0x00, 0x00, 0x00, 0xdc, 0xff, 0xff, 0xff,
  0x0c, 0x00, 0x00, 0x00, 0x04, 0x00, 0x00, 0x00, 0x13, 0x00, 0x00, 0x00,
  0x43, 0x4f, 0x4e, 0x56, 0x45, 0x52, 0x53, 0x49, 0x4f, 0x4e, 0x5f, 0x4d,
  0x45, 0x54, 0x41, 0x44, 0x41, 0x54, 0x41, 0x00, 0x08, 0x00, 0x0c, 0x00,
  0x08, 0x00, 0x04, 0x00, 0x08, 0x00, 0x00, 0x00, 0x0b, 0x00, 0x00, 0x00,
  0x04, 0x00, 0x00, 0x00, 0x13, 0x00, 0x00, 0x00, 0x6d, 0x69, 0x6e, 0x5f,
  0x72, 0x75, 0x6e, 0x74, 0x69, 0x6d, 0x65, 0x5f, 0x76, 0x65, 0x72, 0x73,
  0x69, 0x6f, 0x6e, 0x00, 0x0d, 0x00, 0x00, 0x00, 0x18, 0x06, 0x00, 0x00,
  0x10, 0x06, 0x00, 0x00, 0xfc, 0x05, 0x00, 0x00, 0xa4, 0x05, 0x00, 0x00,
  0x54, 0x05, 0x00, 0x00, 0x04, 0x05, 0x00, 0x00, 0xf4, 0x00, 0x00, 0x00,
  0xa4, 0x00, 0x00, 0x00, 0x9c, 0x00, 0x00, 0x00, 0x94, 0x00, 0x00, 0x00,
  0x8c, 0x00, 0x00, 0x00, 0x6c, 0x00, 0x00, 0x00, 0x04, 0x00, 0x00, 0x00,
  0x36, 0xfa, 0xff, 0xff, 0x04, 0x00, 0x00, 0x00, 0x58, 0x00, 0x00, 0x00,
  0x0c, 0x00, 0x00, 0x00, 0x08, 0x00, 0x0e, 0x00, 0x08, 0x00, 0x04, 0x00,
  0x08, 0x00, 0x00, 0x00, 0x10, 0x00, 0x00, 0x00, 0x28, 0x00, 0x00, 0x00,
  0x00, 0x00, 0x06, 0x00, 0x08, 0x00, 0x04, 0x00, 0x06, 0x00, 0x00, 0x00,
  0x04, 0x00, 0x00, 0x00, 0x01, 0x00, 0x00, 0x00, 0xea, 0x03, 0x00, 0x00,
  0x00, 0x00, 0x0a, 0x00, 0x10, 0x00, 0x0c, 0x00, 0x08, 0x00, 0x04, 0x00,
  0x0a, 0x00, 0x00, 0x00, 0x02, 0x00, 0x00, 0x00, 0x02, 0x00, 0x00, 0x00,
  0x04, 0x00, 0x00, 0x00, 0x06, 0x00, 0x00, 0x00, 0x32, 0x2e, 0x31, 0x34,
  0x2e, 0x30, 0x00, 0x00, 0x9a, 0xfa, 0xff, 0xff, 0x04, 0x00, 0x00, 0x00,
  0x10, 0x00, 0x00, 0x00, 0x31, 0x2e, 0x35, 0x2e, 0x30, 0x00, 0x00, 0x00,
  0x00, 0x00, 0x00, 0x00, 0x00, 0x00, 0x00, 0x00, 0x88, 0xf5, 0xff, 0xff,
  0x8c, 0xf5, 0xff, 0xff, 0x90, 0xf5, 0xff, 0xff, 0xc2, 0xfa, 0xff, 0xff,
  0x04, 0x00, 0x00, 0x00, 0x40, 0x00, 0x00, 0x00, 0xe0, 0x44, 0xf4, 0xbc,
  0x98, 0x2d, 0xe8, 0xbe, 0xab, 0xe3, 0xd4, 0x3f, 0xaf, 0xc8, 0x16, 0xbf,
  0x42, 0xa8, 0x7b, 0x3f, 0xdf, 0x7c, 0x69, 0xbf, 0xf2, 0xa9, 0x4f, 0x3f,
  0xf6, 0xd7, 0x13, 0xbf, 0x62, 0xbd, 0x02, 0x3f, 0xba, 0x9c, 0xd6, 0xbe,
  0xdc, 0xf2, 0x36, 0xbe, 0x1a, 0x18, 0x0a, 0x3f, 0x4e, 0xc0, 0xcd, 0xbe,
  0xf8, 0x32, 0xe1, 0xbe, 0xf7, 0xce, 0xd8, 0xbe, 0x1a, 0x49, 0xb8, 0xbe,
  0x0e, 0xfb, 0xff, 0xff, 0x04, 0x00, 0x00, 0x00, 0x00, 0x04, 0x00, 0x00,
  0xf8, 0xad, 0xb6, 0xbd, 0x73, 0x58, 0xa9, 0x3e, 0xcd, 0x67, 0x89, 0x3e,
  0xec, 0xf3, 0x91, 0x3d, 0xf4, 0x66, 0xd3, 0x3d, 0x38, 0xaa, 0x4c, 0x3d,
  0x78, 0x31, 0x9d, 0xbe, 0xea, 0x76, 0x51, 0x3e, 0x4f, 0x76, 0xae, 0x3e,
  0x20, 0xc6, 0xd4, 0xbd, 0x14, 0x57, 0x9e, 0xbd, 0x92, 0x93, 0xdb, 0xbe,
  0xca, 0xaa, 0x11, 0x3e, 0xb2, 0x29, 0x1a, 0xbe, 0x7a, 0x29, 0x10, 0x3e,
  0xa1, 0x25, 0xd4, 0xbe, 0x91, 0x74, 0x7f, 0xbc, 0x65, 0x08, 0xb1, 0x3e,
  0x7a, 0x0a, 0x54, 0x3e, 0x4f, 0x27, 0x4c, 0x3e, 0xae, 0x08, 0x38, 0x3e,
  0x8f, 0x1b, 0x96, 0xbe, 0xe2, 0x48, 0x02, 0xbe, 0x7b, 0x31, 0x48, 0xbe,
  0xf0, 0x4d, 0x1c, 0x3d, 0xb9, 0x07, 0xa5, 0x3e, 0x65, 0x7d, 0x53, 0xbe,
  0xd1, 0xed, 0xf0, 0xbe, 0xd1, 0xbc, 0x73, 0xbe, 0x7f, 0x44, 0xbb, 0x3e,
  0x08, 0x64, 0x43, 0xbe, 0xc8, 0x7a, 0x7c, 0x3e, 0xac, 0xa9, 0xcd, 0x3c,
  0x19, 0x82, 0xd8, 0xbe, 0xb1, 0x07, 0x5d, 0xbe, 0xf2, 0x34, 0x1c, 0x3e,
  0x69, 0xa7, 0x83, 0x3e, 0x7a, 0x80, 0x63, 0xbc, 0x39, 0xdc, 0x96, 0x3e,
  0x74, 0x11, 0x48, 0xbe, 0xa8, 0x0b, 0x41, 0xbe, 0x51, 0x74, 0x90, 0xbf,
  0xd0, 0x9a, 0x27, 0xbd, 0xe8, 0x77, 0x10, 0xbe, 0xfe, 0x2b, 0xf9, 0xbe,
  0x67, 0x18, 0xc3, 0xbe, 0x30, 0xb9, 0x15, 0xbd, 0xb4, 0xb3, 0xef, 0x3e,
  0x18, 0xc8, 0xb7, 0xbe, 0xfc, 0x08, 0x57, 0xbe, 0x5e, 0xec, 0x3a, 0xbe,
  0xfd, 0xcc, 0x4d, 0xbb, 0xa0, 0x0a, 0xb8, 0x3c, 0x16, 0x3e, 0xbe, 0xbe,
  0xa8, 0x08, 0x55, 0xbd, 0x50, 0x33, 0xb3, 0xbe, 0xc3, 0xd2, 0x86, 0x3e,
  0x22, 0x6d, 0x87, 0xbe, 0x0e, 0xd6, 0x15, 0xbe, 0xad, 0x89, 0x62, 0xbe,
  0xf0, 0xdd, 0x80, 0xbd, 0x20, 0x2e, 0xcd, 0xbd, 0x90, 0x93, 0xc5, 0xbc,
  0x29, 0x96, 0xa1, 0x3e, 0x04, 0x23, 0xf6, 0xbd, 0x68, 0x28, 0x7a, 0xbd,
  0x98, 0x6e, 0x38, 0xbe, 0xe8, 0x2b, 0x47, 0xbe, 0xd9, 0xc2, 0x82, 0x3e,
  0xe8, 0xe5, 0xb6, 0x3e, 0x63, 0xdb, 0xd4, 0x3e, 0x8d, 0x49, 0x29, 0xbe,
  0x01, 0x78, 0xc1, 0x3e, 0xfb, 0xe0, 0xfb, 0xbe, 0xc8, 0x14, 0xfb, 0xbe,
  0x20, 0x72, 0x1d, 0x3e, 0x0d, 0x80, 0x93, 0xbe, 0xcb, 0xaa, 0xc7, 0xbe,
  0x47, 0xe5, 0xb0, 0x3e, 0x8c, 0x32, 0xf1, 0x3e, 0x51, 0xf3, 0x25, 0xbf,
  0xa8, 0x9f, 0x84, 0x3d, 0x10, 0xed, 0x71, 0xbd, 0x0e, 0x63, 0x22, 0x3e,
  0x02, 0xf3, 0x29, 0x3e, 0x9a, 0x66, 0x5c, 0x3e, 0x64, 0xd1, 0xeb, 0x3d,
  0x73, 0xb3, 0xb1, 0xbe, 0xdd, 0x90, 0xaf, 0x3e, 0xfe, 0xea, 0x29, 0xbf,
  0xb3, 0xe8, 0x31, 0xbe, 0x57, 0xe2, 0x99, 0x3e, 0xc6, 0xdb, 0xe3, 0xbe,
  0xd0, 0xfe, 0x49, 0xbd, 0x3b, 0x5b, 0xbd, 0xbe, 0x10, 0xa4, 0xf9, 0xbd,
  0x1b, 0x59, 0x8a, 0x3d, 0x34, 0x6a, 0xb1, 0x3d, 0x42, 0x4b, 0x75, 0xbe,
  0x27, 0x39, 0x7e, 0xbe, 0x51, 0x8b, 0xa7, 0x3e, 0xa8, 0x98, 0xdf, 0x3e,
  0xa6, 0xe8, 0xca, 0xbe, 0xbf, 0xcc, 0xf7, 0xbe, 0xb4, 0xf3, 0xa9, 0xbd,
  0x24, 0xc6, 0x28, 0xbe, 0x95, 0x55, 0x76, 0xbe, 0xcc, 0xf5, 0xd8, 0xbe,
  0x87, 0xc6, 0x07, 0xbf, 0x21, 0xa5, 0x9a, 0x3e, 0x30, 0xb3, 0xc8, 0xbe,
  0x19, 0x7d, 0xb4, 0x3c, 0xd9, 0x93, 0xdb, 0x3e, 0x09, 0xad, 0xd8, 0x3e,
  0xbd, 0x6a, 0x3d, 0xbe, 0xd6, 0x9e, 0xca, 0x3e, 0xf3, 0x78, 0x85, 0x3e,
  0x1f, 0xd0, 0x7f, 0x3e, 0xaf, 0xa2, 0xaf, 0xbe, 0x9e, 0x6b, 0xf2, 0x3d,
  0x8b, 0x31, 0xc6, 0x3e, 0x8f, 0xd0, 0x81, 0xbe, 0x9c, 0x9b, 0x7b, 0xbe,
  0x26, 0x00, 0x7d, 0xbe, 0x86, 0xa1, 0xee, 0xbe, 0x8a, 0xdc, 0x36, 0x3e,
  0x8c, 0xd8, 0x89, 0xbe, 0x81, 0xe7, 0x70, 0x3e, 0xce, 0xfd, 0x9e, 0xbe,
  0x20, 0x85, 0xcf, 0xbe, 0x9a, 0x3c, 0x12, 0x3e, 0x97, 0x16, 0xe0, 0x3e,
  0x9a, 0x4b, 0x63, 0x3e, 0xb8, 0x29, 0x52, 0xbe, 0x00, 0x54, 0xaf, 0xba,
  0x7c, 0x62, 0xfa, 0xbe, 0x03, 0xf9, 0xa9, 0xbe, 0x1d, 0xc5, 0xb6, 0xbe,
  0x7f, 0xcb, 0xdb, 0xbd, 0x20, 0x97, 0x27, 0x3e, 0x0e, 0x46, 0x7d, 0xbe,
  0xa9, 0x9a, 0xc3, 0x3e, 0x2e, 0xe6, 0x0b, 0x3e, 0x6d, 0xde, 0x9f, 0x3e,
  0x39, 0x61, 0x8a, 0x3e, 0x36, 0x0a, 0x42, 0x3e, 0xfb, 0x5c, 0x72, 0xbe,
  0xaf, 0xba, 0xec, 0xbc, 0xf4, 0xa8, 0xd1, 0xbe, 0x7c, 0x20, 0x0a, 0x3e,
  0x64, 0x92, 0xe9, 0xbd, 0xb2, 0xcf, 0x59, 0xbe, 0x4f, 0x2e, 0xc1, 0x3e,
  0xc2, 0xe8, 0xb5, 0xbe, 0xd8, 0xd3, 0xac, 0xbe, 0x24, 0xba, 0xcf, 0xbe,
  0x70, 0x3a, 0xb1, 0xbc, 0x20, 0x16, 0x3c, 0x3c, 0xec, 0x57, 0x00, 0xbe,
  0x38, 0x32, 0x59, 0xbe, 0x6a, 0x58, 0x31, 0x3e, 0xc6, 0x28, 0x37, 0x3e,
  0x0a, 0x73, 0x0a, 0x3e, 0x0d, 0xba, 0x7f, 0xbe, 0xf0, 0x02, 0xc5, 0xbc,
  0x03, 0x32, 0x9b, 0xbe, 0x22, 0x9d, 0x46, 0x3e, 0x4a, 0xe9, 0x5d, 0xbe,
  0x36, 0xcb, 0x5b, 0xbe, 0x75, 0xd1, 0xda, 0xbe, 0xc5, 0x7a, 0xa8, 0xbe,
  0x26, 0x5a, 0x2d, 0xbe, 0x32, 0x52, 0xd0, 0xbe, 0x33, 0xd9, 0xd5, 0x3e,
  0x9b, 0xaf, 0xc4, 0x3e, 0x60, 0xf9, 0xe4, 0xbc, 0x37, 0xd1, 0x9f, 0x3d,
  0x02, 0x1b, 0x27, 0x3e, 0x94, 0x09, 0xd0, 0xbd, 0xea, 0x7c, 0xb9, 0x3e,
  0x98, 0xa5, 0xc9, 0xbe, 0xdf, 0xce, 0x95, 0x3e, 0xec, 0xe9, 0xca, 0x3d,
  0x72, 0x18, 0x88, 0x3e, 0x8f, 0x89, 0xce, 0x3e, 0x75, 0x31, 0xbf, 0x3e,
  0xc4, 0x98, 0x9b, 0x3e, 0xf2, 0x47, 0xd3, 0x3d, 0x6d, 0x29, 0x01, 0xbe,
  0xe6, 0x96, 0x95, 0xbe, 0x1a, 0xae, 0x6e, 0x3e, 0xa5, 0xa6, 0xc6, 0x3e,
  0x10, 0x1b, 0xc2, 0x3e, 0xa0, 0xaa, 0xb1, 0xbe, 0x1a, 0x1e, 0x22, 0x3e,
  0x4d, 0x1c, 0x66, 0x3e, 0x80, 0x50, 0xe6, 0xbc, 0x66, 0xcc, 0x1c, 0xbe,
  0xaf, 0xcc, 0xd0, 0x3e, 0xc0, 0x58, 0x9a, 0x3e, 0x44, 0xb1, 0xd3, 0xbd,
  0x7e, 0x27, 0x08, 0xbf, 0x17, 0x35, 0x90, 0x3d, 0x71, 0x5d, 0xa3, 0x3d,
  0xc1, 0xe0, 0xbe, 0xbe, 0xb7, 0x60, 0x55, 0xbe, 0x1c, 0xcd, 0xa9, 0xbd,
  0xd3, 0x49, 0x33, 0xbe, 0xf1, 0x37, 0x7c, 0x3e, 0xe3, 0x84, 0x90, 0x3e,
  0x33, 0xf2, 0x96, 0x3e, 0x20, 0x48, 0xd0, 0xbe, 0x82, 0x88, 0x6d, 0x3e,
  0xd8, 0x81, 0x9a, 0x3d, 0x6b, 0x1f, 0x78, 0xbe, 0xe2, 0xb0, 0x12, 0x3d,
  0x1c, 0xf9, 0xb4, 0x3d, 0x4c, 0x7d, 0x29, 0xbe, 0x83, 0xbc, 0x3a, 0xbc,
  0xfd, 0x89, 0xb9, 0xbe, 0xcd, 0x2b, 0x94, 0x3e, 0x20, 0x6e, 0x28, 0x3c,
  0x85, 0x1e, 0xbb, 0x3e, 0x4d, 0x0a, 0xc7, 0x3e, 0x70, 0x2b, 0x5a, 0xbe,
  0x65, 0xb8, 0x4f, 0xbe, 0xe0, 0xb0, 0xed, 0x3c, 0x94, 0xa7, 0x4d, 0xbe,
  0x34, 0x8a, 0xfc, 0xbd, 0xb6, 0xd9, 0xa8, 0xbe, 0x7e, 0x6b, 0xba, 0xbe,
  0x5e, 0xa6, 0x66, 0xbe, 0x00, 0xb1, 0x69, 0xbc, 0x50, 0x1e, 0x30, 0xbe,
  0xa3, 0x07, 0xc6, 0x3e, 0x44, 0xb8, 0xb9, 0xbe, 0x28, 0x00, 0x17, 0xbe,
  0xe2, 0x83, 0x87, 0xbe, 0x28, 0x58, 0xb5, 0xbd, 0x78, 0x9e, 0xc1, 0xbd,
  0xa4, 0x4e, 0xf0, 0x3e, 0xb4, 0x87, 0x94, 0x3d, 0xc0, 0xa4, 0xfa, 0x3b,
  0x5f, 0x7c, 0xf3, 0xbd, 0x82, 0x22, 0x85, 0xbe, 0x46, 0x32, 0xa8, 0xbe,
  0xe0, 0x0c, 0xb2, 0xbc, 0x28, 0x0f, 0xab, 0x3e, 0x5e, 0xca, 0x41, 0x3e,
  0x42, 0xf5, 0x1d, 0xbf, 0x5d, 0x11, 0x55, 0xbe, 0xee, 0x10, 0x76, 0x3c,
  0x37, 0x5e, 0x86, 0x3d, 0xfa, 0x62, 0x1f, 0x3e, 0xb1, 0x16, 0x86, 0x3e,
  0xed, 0x09, 0xb0, 0x3e, 0x1a, 0xff, 0xff, 0xff, 0x04, 0x00, 0x00, 0x00,
  0x40, 0x00, 0x00, 0x00, 0x61, 0xe8, 0x1b, 0x3f, 0xd0, 0x9b, 0x14, 0xbd,
  0x94, 0x47, 0x8b, 0xbe, 0x9b, 0x1d, 0xca, 0x3e, 0xe5, 0x95, 0xd3, 0xbe,
  0x81, 0x52, 0xd1, 0x3e, 0x1c, 0x80, 0x1c, 0xbe, 0x65, 0x2f, 0x0b, 0x3f,
  0xd6, 0x21, 0x75, 0xbe, 0xed, 0x41, 0xb0, 0x3e, 0xaf, 0x46, 0xf6, 0x3e,
  0x1c, 0xc4, 0xb7, 0x3d, 0x4f, 0xdb, 0x01, 0x3f, 0x2c, 0xaa, 0x6b, 0xbe,
  0x32, 0x8d, 0x71, 0xbe, 0x33, 0xee, 0x16, 0x3f, 0x66, 0xff, 0xff, 0xff,
  0x04, 0x00, 0x00, 0x00, 0x40, 0x00, 0x00, 0x00, 0xa5, 0xcf, 0xcd, 0xbc,
  0x00, 0x00, 0x00, 0x00, 0x00, 0x00, 0x00, 0x00, 0xa0, 0x8a, 0xd5, 0xbd,
  0x00, 0x00, 0x00, 0x00, 0xb9, 0x50, 0x29, 0x3d, 0x00, 0x00, 0x00, 0x00,
  0xe7, 0x5e, 0xb7, 0xbe, 0x00, 0x00, 0x00, 0x00, 0x12, 0x34, 0x4f, 0xbf,
  0x45, 0xd7, 0x78, 0xbf, 0xb2, 0xfb, 0xd6, 0xbd, 0xe3, 0x0a, 0x2c, 0xbf,
  0x00, 0x00, 0x00, 0x00, 0x00, 0x00, 0x00, 0x00, 0x6d, 0x98, 0x27, 0x3e,
  0xb2, 0xff, 0xff, 0xff, 0x04, 0x00, 0x00, 0x00, 0x40, 0x00, 0x00, 0x00,
  0x00, 0x00, 0x00, 0x00, 0xdb, 0xa2, 0x6b, 0xbd, 0xa6, 0x27, 0xc1, 0x3e,
  0xc8, 0x8f, 0x2e, 0x3d, 0x9a, 0x83, 0x0f, 0x3e, 0x7c, 0xc0, 0x32, 0x3f,
  0x7a, 0x3c, 0x1f, 0xbd, 0x9b, 0xcc, 0xad, 0xbd, 0x9f, 0x25, 0xf7, 0xbc,
  0x49, 0xa4, 0xd2, 0xbc, 0x00, 0x00, 0x00, 0x00, 0x6f, 0x9d, 0x52, 0xbe,
  0x99, 0x89, 0x68, 0xbd, 0x6f, 0xb9, 0x6f, 0xbd, 0x00, 0x00, 0x00, 0x00,
  0xa0, 0xc3, 0x16, 0xbb, 0x00, 0x00, 0x06, 0x00, 0x08, 0x00, 0x04, 0x00,
  0x06, 0x00, 0x00, 0x00, 0x04, 0x00, 0x00, 0x00, 0x04, 0x00, 0x00, 0x00,
  0xd8, 0xc4, 0x86, 0xbe, 0xe8, 0xfa, 0xff, 0xff, 0xec, 0xfa, 0xff, 0xff,
  0x0f, 0x00, 0x00, 0x00, 0x4d, 0x4c, 0x49, 0x52, 0x20, 0x43, 0x6f, 0x6e,
  0x76, 0x65, 0x72, 0x74, 0x65, 0x64, 0x2e, 0x00, 0x01, 0x00, 0x00, 0x00,
  0x14, 0x00, 0x00, 0x00, 0x00, 0x00, 0x0e, 0x00, 0x18, 0x00, 0x14, 0x00,
  0x10, 0x00, 0x0c, 0x00, 0x08, 0x00, 0x04, 0x00, 0x0e, 0x00, 0x00, 0x00,
  0x14, 0x00, 0x00, 0x00, 0x1c, 0x00, 0x00, 0x00, 0xd8, 0x00, 0x00, 0x00,
  0xdc, 0x00, 0x00, 0x00, 0xe0, 0x00, 0x00, 0x00, 0x04, 0x00, 0x00, 0x00,
  0x6d, 0x61, 0x69, 0x6e, 0x00, 0x00, 0x00, 0x00, 0x03, 0x00, 0x00, 0x00,
  0x80, 0x00, 0x00, 0x00, 0x38, 0x00, 0x00, 0x00, 0x04, 0x00, 0x00, 0x00,
  0x9a, 0xff, 0xff, 0xff, 0x10, 0x00, 0x00, 0x00, 0x00, 0x00, 0x00, 0x08,
  0x0c, 0x00, 0x00, 0x00, 0x10, 0x00, 0x00, 0x00, 0x64, 0xfb, 0xff, 0xff,
  0x01, 0x00, 0x00, 0x00, 0x09, 0x00, 0x00, 0x00, 0x03, 0x00, 0x00, 0x00,
  0x08, 0x00, 0x00, 0x00, 0x06, 0x00, 0x00, 0x00, 0x01, 0x00, 0x00, 0x00,
  0xca, 0xff, 0xff, 0xff, 0x10, 0x00, 0x00, 0x00, 0x00, 0x00, 0x00, 0x08,
  0x10, 0x00, 0x00, 0x00, 0x14, 0x00, 0x00, 0x00, 0xba, 0xff, 0xff, 0xff,
  0x00, 0x00, 0x00, 0x01, 0x01, 0x00, 0x00, 0x00, 0x08, 0x00, 0x00, 0x00,
  0x03, 0x00, 0x00, 0x00, 0x07, 0x00, 0x00, 0x00, 0x05, 0x00, 0x00, 0x00,
  0x02, 0x00, 0x00, 0x00, 0x00, 0x00, 0x0e, 0x00, 0x16, 0x00, 0x00, 0x00,
  0x10, 0x00, 0x0c, 0x00, 0x0b, 0x00, 0x04, 0x00, 0x0e, 0x00, 0x00, 0x00,
  0x18, 0x00, 0x00, 0x00, 0x00, 0x00, 0x00, 0x08, 0x18, 0x00, 0x00, 0x00,
  0x1c, 0x00, 0x00, 0x00, 0x00, 0x00, 0x06, 0x00, 0x08, 0x00, 0x07, 0x00,
  0x06, 0x00, 0x00, 0x00, 0x00, 0x00, 0x00, 0x01, 0x01, 0x00, 0x00, 0x00,
  0x07, 0x00, 0x00, 0x00, 0x03, 0x00, 0x00, 0x00, 0x00, 0x00, 0x00, 0x00,
  0x04, 0x00, 0x00, 0x00, 0x03, 0x00, 0x00, 0x00, 0x01, 0x00, 0x00, 0x00,
  0x09, 0x00, 0x00, 0x00, 0x01, 0x00, 0x00, 0x00, 0x00, 0x00, 0x00, 0x00,
  0x0a, 0x00, 0x00, 0x00, 0xc4, 0x03, 0x00, 0x00, 0x50, 0x03, 0x00, 0x00,
  0xdc, 0x02, 0x00, 0x00, 0x80, 0x02, 0x00, 0x00, 0x30, 0x02, 0x00, 0x00,
  0xe0, 0x01, 0x00, 0x00, 0x90, 0x01, 0x00, 0x00, 0xf8, 0x00, 0x00, 0x00,
  0x60, 0x00, 0x00, 0x00, 0x04, 0x00, 0x00, 0x00, 0x7a, 0xfc, 0xff, 0xff,
  0x00, 0x00, 0x00, 0x01, 0x14, 0x00, 0x00, 0x00, 0x1c, 0x00, 0x00, 0x00,
  0x1c, 0x00, 0x00, 0x00, 0x0a, 0x00, 0x00, 0x00, 0x34, 0x00, 0x00, 0x00,
  0x02, 0x00, 0x00, 0x00, 0xff, 0xff, 0xff, 0xff, 0x01, 0x00, 0x00, 0x00,
  0x64, 0xfc, 0xff, 0xff, 0x19, 0x00, 0x00, 0x00, 0x53, 0x74, 0x61, 0x74,
  0x65, 0x66, 0x75, 0x6c, 0x50, 0x61, 0x72, 0x74, 0x69, 0x74, 0x69, 0x6f,
  0x6e, 0x65, 0x64, 0x43, 0x61, 0x6c, 0x6c, 0x3a, 0x30, 0x00, 0x00, 0x00,
  0x02, 0x00, 0x00, 0x00, 0x01, 0x00, 0x00, 0x00, 0x01, 0x00, 0x00, 0x00,
  0xd2, 0xfc, 0xff, 0xff, 0x00, 0x00, 0x00, 0x01, 0x14, 0x00, 0x00, 0x00,
  0x1c, 0x00, 0x00, 0x00, 0x1c, 0x00, 0x00, 0x00, 0x09, 0x00, 0x00, 0x00,
  0x70, 0x00, 0x00, 0x00, 0x02, 0x00, 0x00, 0x00, 0xff, 0xff, 0xff, 0xff,
  0x10, 0x00, 0x00, 0x00, 0xbc, 0xfc, 0xff, 0xff, 0x55, 0x00, 0x00, 0x00,
  0x73, 0x65, 0x71, 0x75, 0x65, 0x6e, 0x74, 0x69, 0x61, 0x6c, 0x5f, 0x37,
  0x2f, 0x64, 0x65, 0x6e, 0x73, 0x65, 0x5f, 0x32, 0x32, 0x2f, 0x4d, 0x61,
  0x74, 0x4d, 0x75, 0x6c, 0x3b, 0x73, 0x65, 0x71, 0x75, 0x65, 0x6e, 0x74,
  0x69, 0x61, 0x6c, 0x5f, 0x37, 0x2f, 0x64, 0x65, 0x6e, 0x73, 0x65, 0x5f,
  0x32, 0x32, 0x2f, 0x52, 0x65, 0x6c, 0x75, 0x3b, 0x73, 0x65, 0x71, 0x75,
  0x65, 0x6e, 0x74, 0x69, 0x61, 0x6c, 0x5f, 0x37, 0x2f, 0x64, 0x65, 0x6e,
  0x73, 0x65, 0x5f, 0x32, 0x32, 0x2f, 0x42, 0x69, 0x61, 0x73, 0x41, 0x64,
  0x64, 0x00, 0x00, 0x00, 0x02, 0x00, 0x00, 0x00, 0x01, 0x00, 0x00, 0x00,
  0x10, 0x00, 0x00, 0x00, 0x66, 0xfd, 0xff, 0xff, 0x00, 0x00, 0x00, 0x01,
  0x14, 0x00, 0x00, 0x00, 0x1c, 0x00, 0x00, 0x00, 0x1c, 0x00, 0x00, 0x00,
  0x08, 0x00, 0x00, 0x00, 0x70, 0x00, 0x00, 0x00, 0x02, 0x00, 0x00, 0x00,
  0xff, 0xff, 0xff, 0xff, 0x10, 0x00, 0x00, 0x00, 0x50, 0xfd, 0xff, 0xff,
  0x55, 0x00, 0x00, 0x00, 0x73, 0x65, 0x71, 0x75, 0x65, 0x6e, 0x74, 0x69,
  0x61, 0x6c, 0x5f, 0x37, 0x2f, 0x64, 0x65, 0x6e, 0x73, 0x65, 0x5f, 0x32,
  0x31, 0x2f, 0x4d, 0x61, 0x74, 0x4d, 0x75, 0x6c, 0x3b, 0x73, 0x65, 0x71,
  0x75, 0x65, 0x6e, 0x74, 0x69, 0x61, 0x6c, 0x5f, 0x37, 0x2f, 0x64, 0x65,
  0x6e, 0x73, 0x65, 0x5f, 0x32, 0x31, 0x2f, 0x52, 0x65, 0x6c, 0x75, 0x3b,
  0x73, 0x65, 0x71, 0x75, 0x65, 0x6e, 0x74, 0x69, 0x61, 0x6c, 0x5f, 0x37,
  0x2f, 0x64, 0x65, 0x6e, 0x73, 0x65, 0x5f, 0x32, 0x31, 0x2f, 0x42, 0x69,
  0x61, 0x73, 0x41, 0x64, 0x64, 0x00, 0x00, 0x00, 0x02, 0x00, 0x00, 0x00,
  0x01, 0x00, 0x00, 0x00, 0x10, 0x00, 0x00, 0x00, 0x6a, 0xfe, 0xff, 0xff,
  0x00, 0x00, 0x00, 0x01, 0x10, 0x00, 0x00, 0x00, 0x10, 0x00, 0x00, 0x00,
  0x07, 0x00, 0x00, 0x00, 0x2c, 0x00, 0x00, 0x00, 0xd4, 0xfd, 0xff, 0xff,
  0x1c, 0x00, 0x00, 0x00, 0x73, 0x65, 0x71, 0x75, 0x65, 0x6e, 0x74, 0x69,
  0x61, 0x6c, 0x5f, 0x37, 0x2f, 0x64, 0x65, 0x6e, 0x73, 0x65, 0x5f, 0x32,
  0x33, 0x2f, 0x4d, 0x61, 0x74, 0x4d, 0x75, 0x6c, 0x00, 0x00, 0x00, 0x00,
  0x02, 0x00, 0x00, 0x00, 0x01, 0x00, 0x00, 0x00, 0x10, 0x00, 0x00, 0x00,
  0xb6, 0xfe, 0xff, 0xff, 0x00, 0x00, 0x00, 0x01, 0x10, 0x00, 0x00, 0x00,
  0x10, 0x00, 0x00, 0x00, 0x06, 0x00, 0x00, 0x00, 0x2c, 0x00, 0x00, 0x00,
  0x20, 0xfe, 0xff, 0xff, 0x1c, 0x00, 0x00, 0x00, 0x73, 0x65, 0x71, 0x75,
  0x65, 0x6e, 0x74, 0x69, 0x61, 0x6c, 0x5f, 0x37, 0x2f, 0x64, 0x65, 0x6e,
  0x73, 0x65, 0x5f, 0x32, 0x32, 0x2f, 0x4d, 0x61, 0x74, 0x4d, 0x75, 0x6c,
  0x00, 0x00, 0x00, 0x00, 0x02, 0x00, 0x00, 0x00, 0x10, 0x00, 0x00, 0x00,
  0x10, 0x00, 0x00, 0x00, 0x02, 0xff, 0xff, 0xff, 0x00, 0x00, 0x00, 0x01,
  0x10, 0x00, 0x00, 0x00, 0x10, 0x00, 0x00, 0x00, 0x05, 0x00, 0x00, 0x00,
  0x2c, 0x00, 0x00, 0x00, 0x6c, 0xfe, 0xff, 0xff, 0x1c, 0x00, 0x00, 0x00,
  0x73, 0x65, 0x71, 0x75, 0x65, 0x6e, 0x74, 0x69, 0x61, 0x6c, 0x5f, 0x37,
  0x2f, 0x64, 0x65, 0x6e, 0x73, 0x65, 0x5f, 0x32, 0x31, 0x2f, 0x4d, 0x61,
  0x74, 0x4d, 0x75, 0x6c, 0x00, 0x00, 0x00, 0x00, 0x02, 0x00, 0x00, 0x00,
  0x10, 0x00, 0x00, 0x00, 0x01, 0x00, 0x00, 0x00, 0x4e, 0xff, 0xff, 0xff,
  0x00, 0x00, 0x00, 0x01, 0x10, 0x00, 0x00, 0x00, 0x10, 0x00, 0x00, 0x00,
  0x04, 0x00, 0x00, 0x00, 0x3c, 0x00, 0x00, 0x00, 0xb8, 0xfe, 0xff, 0xff,
  0x2c, 0x00, 0x00, 0x00, 0x73, 0x65, 0x71, 0x75, 0x65, 0x6e, 0x74, 0x69,
  0x61, 0x6c, 0x5f, 0x37, 0x2f, 0x64, 0x65, 0x6e, 0x73, 0x65, 0x5f, 0x32,
  0x31, 0x2f, 0x42, 0x69, 0x61, 0x73, 0x41, 0x64, 0x64, 0x2f, 0x52, 0x65,
  0x61, 0x64, 0x56, 0x61, 0x72, 0x69, 0x61, 0x62, 0x6c, 0x65, 0x4f, 0x70,
  0x00, 0x00, 0x00, 0x00, 0x01, 0x00, 0x00, 0x00, 0x10, 0x00, 0x00, 0x00,
  0xa6, 0xff, 0xff, 0xff, 0x00, 0x00, 0x00, 0x01, 0x10, 0x00, 0x00, 0x00,
  0x10, 0x00, 0x00, 0x00, 0x03, 0x00, 0x00, 0x00, 0x3c, 0x00, 0x00, 0x00,
  0x10, 0xff, 0xff, 0xff, 0x2c, 0x00, 0x00, 0x00, 0x73, 0x65, 0x71, 0x75,
  0x65, 0x6e, 0x74, 0x69, 0x61, 0x6c, 0x5f, 0x37, 0x2f, 0x64, 0x65, 0x6e,
  0x73, 0x65, 0x5f, 0x32, 0x32, 0x2f, 0x42, 0x69, 0x61, 0x73, 0x41, 0x64,
  0x64, 0x2f, 0x52, 0x65, 0x61, 0x64, 0x56, 0x61, 0x72, 0x69, 0x61, 0x62,
  0x6c, 0x65, 0x4f, 0x70, 0x00, 0x00, 0x00, 0x00, 0x01, 0x00, 0x00, 0x00,
  0x10, 0x00, 0x00, 0x00, 0x00, 0x00, 0x16, 0x00, 0x18, 0x00, 0x14, 0x00,
  0x00, 0x00, 0x10, 0x00, 0x0c, 0x00, 0x08, 0x00, 0x00, 0x00, 0x00, 0x00,
  0x00, 0x00, 0x07, 0x00, 0x16, 0x00, 0x00, 0x00, 0x00, 0x00, 0x00, 0x01,
  0x10, 0x00, 0x00, 0x00, 0x10, 0x00, 0x00, 0x00, 0x02, 0x00, 0x00, 0x00,
  0x3c, 0x00, 0x00, 0x00, 0x80, 0xff, 0xff, 0xff, 0x2c, 0x00, 0x00, 0x00,
  0x73, 0x65, 0x71, 0x75, 0x65, 0x6e, 0x74, 0x69, 0x61, 0x6c, 0x5f, 0x37,
  0x2f, 0x64, 0x65, 0x6e, 0x73, 0x65, 0x5f, 0x32, 0x33, 0x2f, 0x42, 0x69,
  0x61, 0x73, 0x41, 0x64, 0x64, 0x2f, 0x52, 0x65, 0x61, 0x64, 0x56, 0x61,
  0x72, 0x69, 0x61, 0x62, 0x6c, 0x65, 0x4f, 0x70, 0x00, 0x00, 0x00, 0x00,
  0x01, 0x00, 0x00, 0x00, 0x01, 0x00, 0x00, 0x00, 0x00, 0x00, 0x16, 0x00,
  0x1c, 0x00, 0x18, 0x00, 0x00, 0x00, 0x14, 0x00, 0x10, 0x00, 0x0c, 0x00,
  0x00, 0x00, 0x00, 0x00, 0x08, 0x00, 0x07, 0x00, 0x16, 0x00, 0x00, 0x00,
  0x00, 0x00, 0x00, 0x01, 0x14, 0x00, 0x00, 0x00, 0x20, 0x00, 0x00, 0x00,
  0x20, 0x00, 0x00, 0x00, 0x01, 0x00, 0x00, 0x00, 0x40, 0x00, 0x00, 0x00,
  0x02, 0x00, 0x00, 0x00, 0xff, 0xff, 0xff, 0xff, 0x01, 0x00, 0x00, 0x00,
  0x04, 0x00, 0x04, 0x00, 0x04, 0x00, 0x00, 0x00, 0x20, 0x00, 0x00, 0x00,
  0x73, 0x65, 0x72, 0x76, 0x69, 0x6e, 0x67, 0x5f, 0x64, 0x65, 0x66, 0x61,
  0x75, 0x6c, 0x74, 0x5f, 0x64, 0x65, 0x6e, 0x73, 0x65, 0x5f, 0x32, 0x31,
  0x5f, 0x69, 0x6e, 0x70, 0x75, 0x74, 0x3a, 0x30, 0x00, 0x00, 0x00, 0x00,
  0x02, 0x00, 0x00, 0x00, 0x01, 0x00, 0x00, 0x00, 0x01, 0x00, 0x00, 0x00,
  0x01, 0x00, 0x00, 0x00, 0x10, 0x00, 0x00, 0x00, 0x0c, 0x00, 0x0c, 0x00,
  0x0b, 0x00, 0x00, 0x00, 0x00, 0x00, 0x04, 0x00, 0x0c, 0x00, 0x00, 0x00,
  0x09, 0x00, 0x00, 0x00, 0x00, 0x00, 0x00, 0x09
};

#endif //SINENN_H